TRT-100300-MinMaxCalibration
images: 3c010204
/model.0/conv/Conv_output_0: 3f2f3ce7
/model.0/act/Sigmoid_output_0: 3c010204
/model.0/act/Mul_output_0: 3f2f3ce7
/model.1/conv/Conv_output_0: 3f1ab680
/model.1/act/Sigmoid_output_0: 3c010204
/model.1/act/Mul_output_0: 3f015c5f
/model.2/cv1/conv/Conv_output_0: 3ee50efe
/model.2/cv1/act/Sigmoid_output_0: 3c010204
/model.2/cv1/act/Mul_output_0: 3e418c23
/model.2/Split_output_0: 3e418c23
/model.2/Split_output_1: 3db9856a
/model.2/m.0/cv1/conv/Conv_output_0: 3e503c43
/model.2/m.0/cv1/act/Sigmoid_output_0: 3c010202
/model.2/m.0/cv1/act/Mul_output_0: 3df7bbdd
/model.2/m.0/cv2/conv/Conv_output_0: 3df2c394
/model.2/m.0/cv2/act/Sigmoid_output_0: 3c00ffbd
/model.2/m.0/cv2/act/Mul_output_0: 3d9a73f6
/model.2/m.0/Add_output_0: 3ddee69f
/model.2/m.1/cv1/conv/Conv_output_0: 3e0fd175
/model.2/m.1/cv1/act/Sigmoid_output_0: 3c0101fc
/model.2/m.1/cv1/act/Mul_output_0: 3dde7a2d
/model.2/m.1/cv2/conv/Conv_output_0: 3e2a2049
/model.2/m.1/cv2/act/Sigmoid_output_0: 3c010202
/model.2/m.1/cv2/act/Mul_output_0: 3df79a10
/model.2/m.1/Add_output_0: 3e23b08d
/model.2/m.2/cv1/conv/Conv_output_0: 3daecce9
/model.2/m.2/cv1/act/Sigmoid_output_0: 3c00f449
/model.2/m.2/cv1/act/Mul_output_0: 3d7afa22
/model.2/m.2/cv2/conv/Conv_output_0: 3e5e1037
/model.2/m.2/cv2/act/Sigmoid_output_0: 3c010204
/model.2/m.2/cv2/act/Mul_output_0: 3e5e1037
/model.2/m.2/Add_output_0: 3e5b548d
/model.2/Concat_output_0: 3e5b548d
/model.2/cv2/conv/Conv_output_0: 3dee4267
/model.2/cv2/act/Sigmoid_output_0: 3c010119
/model.2/cv2/act/Mul_output_0: 3da92e61
/model.3/conv/Conv_output_0: 3d9c942c
/model.3/act/Sigmoid_output_0: 3c00f721
/model.3/act/Mul_output_0: 3d8133c3
/model.4/cv1/conv/Conv_output_0: 3e17f85a
/model.4/cv1/act/Sigmoid_output_0: 3c010204
/model.4/cv1/act/Mul_output_0: 3e17f85a
/model.4/Split_output_0: 3e17f85a
/model.4/Split_output_1: 3d80c9d8
/model.4/m.0/cv1/conv/Conv_output_0: 3d92fe1b
/model.4/m.0/cv1/act/Sigmoid_output_0: 3c00e0cb
/model.4/m.0/cv1/act/Mul_output_0: 3d5e5625
/model.4/m.0/cv2/conv/Conv_output_0: 3d5d8758
/model.4/m.0/cv2/act/Sigmoid_output_0: 3c0066ea
/model.4/m.0/cv2/act/Mul_output_0: 3d2bf099
/model.4/m.0/Add_output_0: 3d7f87e8
/model.4/m.1/cv1/conv/Conv_output_0: 3da50d17
/model.4/m.1/cv1/act/Sigmoid_output_0: 3c00c99e
/model.4/m.1/cv1/act/Mul_output_0: 3d4d1f65
/model.4/m.1/cv2/conv/Conv_output_0: 3d81f1a9
/model.4/m.1/cv2/act/Sigmoid_output_0: 3c00f791
/model.4/m.1/cv2/act/Mul_output_0: 3d81e723
/model.4/m.1/Add_output_0: 3d999571
/model.4/m.2/cv1/conv/Conv_output_0: 3da98cf7
/model.4/m.2/cv1/act/Sigmoid_output_0: 3c007d6a
/model.4/m.2/cv1/act/Mul_output_0: 3d311cb3
/model.4/m.2/cv2/conv/Conv_output_0: 3d986f37
/model.4/m.2/cv2/act/Sigmoid_output_0: 3c00ff6c
/model.4/m.2/cv2/act/Mul_output_0: 3d986c27
/model.4/m.2/Add_output_0: 3dd6c0f0
/model.4/m.3/cv1/conv/Conv_output_0: 3da74e19
/model.4/m.3/cv1/act/Sigmoid_output_0: 3c00e9f9
/model.4/m.3/cv1/act/Mul_output_0: 3d68d4cc
/model.4/m.3/cv2/conv/Conv_output_0: 3e083105
/model.4/m.3/cv2/act/Sigmoid_output_0: 3c010204
/model.4/m.3/cv2/act/Mul_output_0: 3e083105
/model.4/m.3/Add_output_0: 3e01325a
/model.4/m.4/cv1/conv/Conv_output_0: 3dccc804
/model.4/m.4/cv1/act/Sigmoid_output_0: 3c00fffc
/model.4/m.4/cv1/act/Mul_output_0: 3d9c3c8a
/model.4/m.4/cv2/conv/Conv_output_0: 3e32e27f
/model.4/m.4/cv2/act/Sigmoid_output_0: 3c010204
/model.4/m.4/cv2/act/Mul_output_0: 3e32e27f
/model.4/m.4/Add_output_0: 3e3559a3
/model.4/m.5/cv1/conv/Conv_output_0: 3e0c598a
/model.4/m.5/cv1/act/Sigmoid_output_0: 3c010176
/model.4/m.5/cv1/act/Mul_output_0: 3db14ba3
/model.4/m.5/cv2/conv/Conv_output_0: 3eb660bb
/model.4/m.5/cv2/act/Sigmoid_output_0: 3c010204
/model.4/m.5/cv2/act/Mul_output_0: 3eb660bb
/model.4/m.5/Add_output_0: 3ed75202
/model.4/Concat_output_0: 3ed75202
/model.4/cv2/conv/Conv_output_0: 3e36a443
/model.4/cv2/act/Sigmoid_output_0: 3c0101f5
/model.4/cv2/act/Mul_output_0: 3dd5482c
/model.5/conv/Conv_output_0: 3db85846
/model.5/act/Sigmoid_output_0: 3c0100b4
/model.5/act/Mul_output_0: 3da37d6a
/model.6/cv1/conv/Conv_output_0: 3e1581c6
/model.6/cv1/act/Sigmoid_output_0: 3c010204
/model.6/cv1/act/Mul_output_0: 3e1581c6
/model.6/Split_output_0: 3e1581c6
/model.6/Split_output_1: 3d8bc3a8
/model.6/m.0/cv1/conv/Conv_output_0: 3e02758f
/model.6/m.0/cv1/act/Sigmoid_output_0: 3c0101fd
/model.6/m.0/cv1/act/Mul_output_0: 3de2dafe
/model.6/m.0/cv2/conv/Conv_output_0: 3de6e153
/model.6/m.0/cv2/act/Sigmoid_output_0: 3c01012d
/model.6/m.0/cv2/act/Mul_output_0: 3daa91ce
/model.6/m.0/Add_output_0: 3df8ec85
/model.6/m.1/cv1/conv/Conv_output_0: 3df7288f
/model.6/m.1/cv1/act/Sigmoid_output_0: 3c010201
/model.6/m.1/cv1/act/Mul_output_0: 3df06572
/model.6/m.1/cv2/conv/Conv_output_0: 3df5d55f
/model.6/m.1/cv2/act/Sigmoid_output_0: 3c0101a3
/model.6/m.1/cv2/act/Mul_output_0: 3db79d0a
/model.6/m.1/Add_output_0: 3e4e631e
/model.6/m.2/cv1/conv/Conv_output_0: 3dfab926
/model.6/m.2/cv1/act/Sigmoid_output_0: 3c0101f5
/model.6/m.2/cv1/act/Mul_output_0: 3dd566fd
/model.6/m.2/cv2/conv/Conv_output_0: 3e063110
/model.6/m.2/cv2/act/Sigmoid_output_0: 3c0101fe
/model.6/m.2/cv2/act/Mul_output_0: 3de44268
/model.6/m.2/Add_output_0: 3e8f076d
/model.6/m.3/cv1/conv/Conv_output_0: 3e153aa4
/model.6/m.3/cv1/act/Sigmoid_output_0: 3c010200
/model.6/m.3/cv1/act/Mul_output_0: 3debe2a8
/model.6/m.3/cv2/conv/Conv_output_0: 3e18155a
/model.6/m.3/cv2/act/Sigmoid_output_0: 3c0101ff
/model.6/m.3/cv2/act/Mul_output_0: 3de758e8
/model.6/m.3/Add_output_0: 3ec49fad
/model.6/m.4/cv1/conv/Conv_output_0: 3e06174c
/model.6/m.4/cv1/act/Sigmoid_output_0: 3c0101fd
/model.6/m.4/cv1/act/Mul_output_0: 3de0f29f
/model.6/m.4/cv2/conv/Conv_output_0: 3e2908bb
/model.6/m.4/cv2/act/Sigmoid_output_0: 3c010204
/model.6/m.4/cv2/act/Mul_output_0: 3e19c7ef
/model.6/m.4/Add_output_0: 3eea3487
/model.6/m.5/cv1/conv/Conv_output_0: 3dff1f4b
/model.6/m.5/cv1/act/Sigmoid_output_0: 3c0101ef
/model.6/m.5/cv1/act/Mul_output_0: 3dcffd3c
/model.6/m.5/cv2/conv/Conv_output_0: 3e3e695a
/model.6/m.5/cv2/act/Sigmoid_output_0: 3c010204
/model.6/m.5/cv2/act/Mul_output_0: 3e3e695a
/model.6/m.5/Add_output_0: 3f0e0f2e
/model.6/Concat_output_0: 3f0e0f2e
/model.6/cv2/conv/Conv_output_0: 3e2d394c
/model.6/cv2/act/Sigmoid_output_0: 3c010204
/model.6/cv2/act/Mul_output_0: 3e16c52d
/model.7/conv/Conv_output_0: 3e39c326
/model.7/act/Sigmoid_output_0: 3c010204
/model.7/act/Mul_output_0: 3e0c78d2
/model.8/cv1/conv/Conv_output_0: 3e249316
/model.8/cv1/act/Sigmoid_output_0: 3c010204
/model.8/cv1/act/Mul_output_0: 3e20ee33
/model.8/Split_output_0: 3e20ee33
/model.8/Split_output_1: 3e04b5c5
/model.8/m.0/cv1/conv/Conv_output_0: 3e32f530
/model.8/m.0/cv1/act/Sigmoid_output_0: 3c010204
/model.8/m.0/cv1/act/Mul_output_0: 3e196a5a
/model.8/m.0/cv2/conv/Conv_output_0: 3e271b81
/model.8/m.0/cv2/act/Sigmoid_output_0: 3c010204
/model.8/m.0/cv2/act/Mul_output_0: 3e119cf8
/model.8/m.0/Add_output_0: 3e3fd872
/model.8/m.1/cv1/conv/Conv_output_0: 3e3e8c07
/model.8/m.1/cv1/act/Sigmoid_output_0: 3c010204
/model.8/m.1/cv1/act/Mul_output_0: 3e1b6c44
/model.8/m.1/cv2/conv/Conv_output_0: 3e2ebdc5
/model.8/m.1/cv2/act/Sigmoid_output_0: 3c010204
/model.8/m.1/cv2/act/Mul_output_0: 3e2ebdc5
/model.8/m.1/Add_output_0: 3e871956
/model.8/m.2/cv1/conv/Conv_output_0: 3e0fc6fa
/model.8/m.2/cv1/act/Sigmoid_output_0: 3c010204
/model.8/m.2/cv1/act/Mul_output_0: 3e08ad82
/model.8/m.2/cv2/conv/Conv_output_0: 3e1dec92
/model.8/m.2/cv2/act/Sigmoid_output_0: 3c010204
/model.8/m.2/cv2/act/Mul_output_0: 3e1a0e31
/model.8/m.2/Add_output_0: 3eb99d58
/model.8/Concat_output_0: 3eb99d58
/model.8/cv2/conv/Conv_output_0: 3e49e69a
/model.8/cv2/act/Sigmoid_output_0: 3c010204
/model.8/cv2/act/Mul_output_0: 3e181a39
/model.9/cv1/conv/Conv_output_0: 3e2f6a46
/model.9/cv1/act/Sigmoid_output_0: 3c010204
/model.9/cv1/act/Mul_output_0: 3e2f6a46
/model.9/m/MaxPool_output_0: 3e2f6a46
/model.9/m_1/MaxPool_output_0: 3e2f6a46
/model.9/m_2/MaxPool_output_0: 3e2f6a46
/model.9/Concat_output_0: 3e2f6a46
/model.9/cv2/conv/Conv_output_0: 3df1d646
/model.9/cv2/act/Sigmoid_output_0: 3c00c6c6
/model.9/cv2/act/Mul_output_0: 3d4b855b
/model.10/Resize_output_0: 3d4b855b
/model.11/Concat_output_0: 3e16c52d
/model.12/cv1/conv/Conv_output_0: 3e48f18d
/model.12/cv1/act/Sigmoid_output_0: 3c010204
/model.12/cv1/act/Mul_output_0: 3e1f4b0e
/model.12/Split_output_0: 3e1f4b0e
/model.12/Split_output_1: 3e13bafb
/model.12/m.0/cv1/conv/Conv_output_0: 3e2e5671
/model.12/m.0/cv1/act/Sigmoid_output_0: 3c010204
/model.12/m.0/cv1/act/Mul_output_0: 3e21acbd
/model.12/m.0/cv2/conv/Conv_output_0: 3e30890f
/model.12/m.0/cv2/act/Sigmoid_output_0: 3c010204
/model.12/m.0/cv2/act/Mul_output_0: 3e283c49
/model.12/m.1/cv1/conv/Conv_output_0: 3e574383
/model.12/m.1/cv1/act/Sigmoid_output_0: 3c010204
/model.12/m.1/cv1/act/Mul_output_0: 3e4df213
/model.12/m.1/cv2/conv/Conv_output_0: 3e34bef2
/model.12/m.1/cv2/act/Sigmoid_output_0: 3c010204
/model.12/m.1/cv2/act/Mul_output_0: 3e298a0d
/model.12/m.2/cv1/conv/Conv_output_0: 3e5edbb4
/model.12/m.2/cv1/act/Sigmoid_output_0: 3c010204
/model.12/m.2/cv1/act/Mul_output_0: 3e536684
/model.12/m.2/cv2/conv/Conv_output_0: 3e4818e3
/model.12/m.2/cv2/act/Sigmoid_output_0: 3c010204
/model.12/m.2/cv2/act/Mul_output_0: 3e2398bc
/model.12/Concat_output_0: 3e298a0d
/model.12/cv2/conv/Conv_output_0: 3e64e2e5
/model.12/cv2/act/Sigmoid_output_0: 3c010204
/model.12/cv2/act/Mul_output_0: 3e20cd0e
/model.13/Resize_output_0: 3e20cd0e
/model.14/Concat_output_0: 3e20cd0e
/model.15/cv1/conv/Conv_output_0: 3e24ec9d
/model.15/cv1/act/Sigmoid_output_0: 3c010204
/model.15/cv1/act/Mul_output_0: 3e09d09c
/model.15/Split_output_0: 3e09d09c
/model.15/Split_output_1: 3db1ca9d
/model.15/m.0/cv1/conv/Conv_output_0: 3dd82cbd
/model.15/m.0/cv1/act/Sigmoid_output_0: 3c0100b6
/model.15/m.0/cv1/act/Mul_output_0: 3da39636
/model.15/m.0/cv2/conv/Conv_output_0: 3dd53d3f
/model.15/m.0/cv2/act/Sigmoid_output_0: 3c0101f5
/model.15/m.0/cv2/act/Mul_output_0: 3dd53d26
/model.15/m.1/cv1/conv/Conv_output_0: 3dd3f1fa
/model.15/m.1/cv1/act/Sigmoid_output_0: 3c0101f3
/model.15/m.1/cv1/act/Mul_output_0: 3dd3f1df
/model.15/m.1/cv2/conv/Conv_output_0: 3de1dc27
/model.15/m.1/cv2/act/Sigmoid_output_0: 3c0101fd
/model.15/m.1/cv2/act/Mul_output_0: 3de1dc1b
/model.15/m.2/cv1/conv/Conv_output_0: 3dbb39a0
/model.15/m.2/cv1/act/Sigmoid_output_0: 3c00ffe9
/model.15/m.2/cv1/act/Mul_output_0: 3d9bac9f
/model.15/m.2/cv2/conv/Conv_output_0: 3df40049
/model.15/m.2/cv2/act/Sigmoid_output_0: 3c0101fc
/model.15/m.2/cv2/act/Mul_output_0: 3ddfa2fa
/model.15/Concat_output_0: 3e09d09c
/model.15/cv2/conv/Conv_output_0: 3e1664bb
/model.15/cv2/act/Sigmoid_output_0: 3c0101ff
/model.15/cv2/act/Mul_output_0: 3de6ca36
/model.16/conv/Conv_output_0: 3df71f25
/model.22/cv2.0/cv2.0.0/conv/Conv_output_0: 3e4341c1
/model.22/cv3.0/cv3.0.0/conv/Conv_output_0: 3de26c7e
/model.16/act/Sigmoid_output_0: 3c010202
/model.22/cv2.0/cv2.0.0/act/Sigmoid_output_0: 3c0101cf
/model.22/cv3.0/cv3.0.0/act/Sigmoid_output_0: 3c0101fd
/model.16/act/Mul_output_0: 3df71f21
/model.22/cv2.0/cv2.0.0/act/Mul_output_0: 3dc12660
/model.22/cv3.0/cv3.0.0/act/Mul_output_0: 3de26c72
/model.17/Concat_output_0: 3e20cd0e
/model.22/cv2.0/cv2.0.1/conv/Conv_output_0: 3ea9c7ef
/model.22/cv3.0/cv3.0.1/conv/Conv_output_0: 3e5dbbaf
/model.18/cv1/conv/Conv_output_0: 3e65320b
/model.22/cv2.0/cv2.0.1/act/Sigmoid_output_0: 3c010204
/model.22/cv3.0/cv3.0.1/act/Sigmoid_output_0: 3c010204
/model.18/cv1/act/Sigmoid_output_0: 3c010204
/model.22/cv2.0/cv2.0.1/act/Mul_output_0: 3ea9c7ef
/model.22/cv3.0/cv3.0.1/act/Mul_output_0: 3e3bb2da
/model.18/cv1/act/Mul_output_0: 3e525deb
/model.22/cv2.0/cv2.0.2/Conv_output_0: 3ddc6d1e
/model.22/cv3.0/cv3.0.2/Conv_output_0: 3e94e0ac
/model.18/Split_output_0: 3e525deb
/model.18/Split_output_1: 3e35a677
/model.22/Concat_output_0: 3e94e0ac
/model.18/m.0/cv1/conv/Conv_output_0: 3e5a9bb2
/model.22/Reshape_output_0: 3e94e0ac
/model.18/m.0/cv1/act/Sigmoid_output_0: 3c010204
/model.18/m.0/cv1/act/Mul_output_0: 3e5a0848
/model.18/m.0/cv2/conv/Conv_output_0: 3e38018f
/model.18/m.0/cv2/act/Sigmoid_output_0: 3c010204
/model.18/m.0/cv2/act/Mul_output_0: 3e2e753a
/model.18/m.1/cv1/conv/Conv_output_0: 3e6503cb
/model.18/m.1/cv1/act/Sigmoid_output_0: 3c010204
/model.18/m.1/cv1/act/Mul_output_0: 3e49aa64
/model.18/m.1/cv2/conv/Conv_output_0: 3e2ad685
/model.18/m.1/cv2/act/Sigmoid_output_0: 3c010204
/model.18/m.1/cv2/act/Mul_output_0: 3e2ad685
/model.18/m.2/cv1/conv/Conv_output_0: 3e855b5a
/model.18/m.2/cv1/act/Sigmoid_output_0: 3c010204
/model.18/m.2/cv1/act/Mul_output_0: 3e3e143f
/model.18/m.2/cv2/conv/Conv_output_0: 3e6c2b47
/model.18/m.2/cv2/act/Sigmoid_output_0: 3c010204
/model.18/m.2/cv2/act/Mul_output_0: 3e669ca4
/model.18/Concat_output_0: 3e669ca4
/model.18/cv2/conv/Conv_output_0: 3ecc8e8d
/model.18/cv2/act/Sigmoid_output_0: 3c010204
/model.18/cv2/act/Mul_output_0: 3eb41483
/model.19/conv/Conv_output_0: 3e50b5fc
/model.22/cv2.1/cv2.1.0/conv/Conv_output_0: 3e90b63c
/model.22/cv3.1/cv3.1.0/conv/Conv_output_0: 3ea88af4
/model.19/act/Sigmoid_output_0: 3c010204
/model.22/cv2.1/cv2.1.0/act/Sigmoid_output_0: 3c010204
/model.22/cv3.1/cv3.1.0/act/Sigmoid_output_0: 3c010204
/model.19/act/Mul_output_0: 3e371042
/model.22/cv2.1/cv2.1.0/act/Mul_output_0: 3e364d33
/model.22/cv3.1/cv3.1.0/act/Mul_output_0: 3ea88af4
/model.20/Concat_output_0: 3e371042
/model.22/cv2.1/cv2.1.1/conv/Conv_output_0: 3f205179
/model.22/cv3.1/cv3.1.1/conv/Conv_output_0: 3f81618a
/model.21/cv1/conv/Conv_output_0: 3e55cd63
/model.22/cv2.1/cv2.1.1/act/Sigmoid_output_0: 3c010204
/model.22/cv3.1/cv3.1.1/act/Sigmoid_output_0: 3c010204
/model.21/cv1/act/Sigmoid_output_0: 3c010204
/model.22/cv2.1/cv2.1.1/act/Mul_output_0: 3f128494
/model.22/cv3.1/cv3.1.1/act/Mul_output_0: 3f0c4b04
/model.21/cv1/act/Mul_output_0: 3e55cd63
/model.22/cv2.1/cv2.1.2/Conv_output_0: 3e1b9edd
/model.22/cv3.1/cv3.1.2/Conv_output_0: 3e357928
/model.21/Split_output_0: 3e4567fc
/model.21/Split_output_1: 3e55cd63
/model.22/Concat_1_output_0: 3e357928
/model.21/m.0/cv1/conv/Conv_output_0: 3e1b86c8
/model.22/Reshape_1_output_0: 3e357928
/model.21/m.0/cv1/act/Sigmoid_output_0: 3c010204
/model.21/m.0/cv1/act/Mul_output_0: 3e177605
/model.21/m.0/cv2/conv/Conv_output_0: 3deb07c8
/model.21/m.0/cv2/act/Sigmoid_output_0: 3c010200
/model.21/m.0/cv2/act/Mul_output_0: 3deb07c1
/model.21/m.1/cv1/conv/Conv_output_0: 3e0a7eb8
/model.21/m.1/cv1/act/Sigmoid_output_0: 3c010204
/model.21/m.1/cv1/act/Mul_output_0: 3e0a7eb8
/model.21/m.1/cv2/conv/Conv_output_0: 3df2c174
/model.21/m.1/cv2/act/Sigmoid_output_0: 3c010201
/model.21/m.1/cv2/act/Mul_output_0: 3df2c16e
/model.21/m.2/cv1/conv/Conv_output_0: 3e0b8c50
/model.21/m.2/cv1/act/Sigmoid_output_0: 3c010201
/model.21/m.2/cv1/act/Mul_output_0: 3df1b28f
/model.21/m.2/cv2/conv/Conv_output_0: 3e173aea
/model.21/m.2/cv2/act/Sigmoid_output_0: 3c010204
/model.21/m.2/cv2/act/Mul_output_0: 3e173aea
/model.21/Concat_output_0: 3e55cd63
/model.21/cv2/conv/Conv_output_0: 3e1fff90
/model.21/cv2/act/Sigmoid_output_0: 3c010204
/model.21/cv2/act/Mul_output_0: 3e03e1f7
/model.22/cv2.2/cv2.2.0/conv/Conv_output_0: 3dae5f72
/model.22/cv3.2/cv3.2.0/conv/Conv_output_0: 3e5f3ede
/model.22/cv2.2/cv2.2.0/act/Sigmoid_output_0: 3c01015c
/model.22/cv3.2/cv3.2.0/act/Sigmoid_output_0: 3c010204
/model.22/cv2.2/cv2.2.0/act/Mul_output_0: 3dae5e8e
/model.22/cv3.2/cv3.2.0/act/Mul_output_0: 3e5f3ede
/model.22/cv2.2/cv2.2.1/conv/Conv_output_0: 3e559941
/model.22/cv3.2/cv3.2.1/conv/Conv_output_0: 3e874d53
/model.22/cv2.2/cv2.2.1/act/Sigmoid_output_0: 3c010204
/model.22/cv3.2/cv3.2.1/act/Sigmoid_output_0: 3c010204
/model.22/cv2.2/cv2.2.1/act/Mul_output_0: 3e559941
/model.22/cv3.2/cv3.2.1/act/Mul_output_0: 3e874d53
/model.22/cv2.2/cv2.2.2/Conv_output_0: 3d78c9e1
/model.22/cv3.2/cv3.2.2/Conv_output_0: 3e01b4bf
/model.22/Concat_2_output_0: 3e01b4bf
/model.22/Reshape_2_output_0: 3e01b4bf
/model.22/Concat_3_output_0: 3e94e0ac
/model.22/Split_output_0: 3e1b9edd
/model.22/Split_output_1: 3e94e0ac
/model.22/dfl/Reshape_output_0: 3e1b9edd
/model.22/Sigmoid_output_0: 39de27f8
/model.22/dfl/Transpose_output_0: 3e1b9edd
/model.22/dfl/Softmax_output: 3c00d59b
/model.22/dfl/Softmax_output_0: 3c00d59b
/model.22/dfl/conv/Conv_output_0: 3dad78b0
/model.22/dfl/Reshape_1_output_0: 3dad78b0
/model.22/Slice_output_0: 3da855dd
/model.22/Add_1_output_0: 3fbc6619
ONNXTRT_Broadcast_95_output: 3e810204
/model.22/Constant_12_output_0_output: 3e810204
/model.22/Mul_2_output_0: 4136f254
output0: 4136f254
ONNXTRT_Broadcast_output: 3c810204
/model.22/Sub_output_0: 3fb460dc
/model.22/Concat_4_output_0: 3fb4ed71
/model.22/Add_2_output_0: 4034ed71
/model.22/Constant_9_output_0_output: 3fb4e9d4
/model.22/Constant_11_output_0_output: 3c810204
/model.22/Sub_1_output_0: 3e26f74b
/model.22/Div_1_output_0: 3fb4ed71
/model.22/Slice_1_output_0: 3dad78b0
/model.22/Constant_10_output_0_output: 3fb4e9d4
